/* Copyright 2020 The TensorFlow Authors. All Rights Reserved.

Licensed under the Apache License, Version 2.0 (the "License");
you may not use this file except in compliance with the License.
You may obtain a copy of the License at

    http://www.apache.org/licenses/LICENSE-2.0

Unless required by applicable law or agreed to in writing, software
distributed under the License is distributed on an "AS IS" BASIS,
WITHOUT WARRANTIES OR CONDITIONS OF ANY KIND, either express or implied.
See the License for the specific language governing permissions and
limitations under the License.
==============================================================================*/

// Automatically created from a TensorFlow Lite flatbuffer using the command:
// xxd -i model.tflite > model.cc

// This is a standard TensorFlow Lite model file that has been converted into a
// C data array, so it can be easily compiled into a binary for devices that
// don't have a file system.

// See train/README.md for a full description of the creation process.

#include "model.h"
                    
// Keep model aligned to 8 bytes to guarantee aligned 64-bit accesses.
alignas(8) const unsigned char g_model[] = {
0x1c, 0x00, 0x00, 0x00, 0x54, 0x46, 0x4c, 0x33, 0x14, 0x00, 0x20, 0x00, 
0x04, 0x00, 0x08, 0x00, 0x0c, 0x00, 0x10, 0x00, 0x14, 0x00, 0x00, 0x00, 
0x18, 0x00, 0x1c, 0x00, 0x14, 0x00, 0x00, 0x00, 0x03, 0x00, 0x00, 0x00, 
0x18, 0x00, 0x00, 0x00, 0x20, 0x00, 0x00, 0x00, 0x40, 0x01, 0x00, 0x00, 
0x20, 0x00, 0x00, 0x00, 0xe8, 0x00, 0x00, 0x00, 0x44, 0x00, 0x00, 0x00, 
0x02, 0x00, 0x00, 0x00, 0x40, 0x03, 0x00, 0x00, 0xf0, 0x01, 0x00, 0x00, 
0x01, 0x00, 0x00, 0x00, 0x44, 0x01, 0x00, 0x00, 0x0a, 0x00, 0x00, 0x00, 
0x30, 0x0d, 0x00, 0x00, 0x2c, 0x0d, 0x00, 0x00, 0x54, 0x0c, 0x00, 0x00, 
0xe4, 0x0b, 0x00, 0x00, 0xf4, 0x03, 0x00, 0x00, 0x74, 0x03, 0x00, 0x00, 
0x18, 0x0d, 0x00, 0x00, 0x14, 0x0d, 0x00, 0x00, 0x10, 0x0d, 0x00, 0x00, 
0xd8, 0x00, 0x00, 0x00, 0x01, 0x00, 0x00, 0x00, 0x10, 0x00, 0x00, 0x00, 
0x0c, 0x00, 0x14, 0x00, 0x10, 0x00, 0x0c, 0x00, 0x08, 0x00, 0x04, 0x00, 
0x0c, 0x00, 0x00, 0x00, 0x10, 0x00, 0x00, 0x00, 0x18, 0x00, 0x00, 0x00, 
0x28, 0x00, 0x00, 0x00, 0x2c, 0x00, 0x00, 0x00, 0x05, 0x00, 0x00, 0x00, 
0x73, 0x65, 0x72, 0x76, 0x65, 0x00, 0x00, 0x00, 0x0f, 0x00, 0x00, 0x00, 
0x73, 0x65, 0x72, 0x76, 0x69, 0x6e, 0x67, 0x5f, 0x64, 0x65, 0x66, 0x61, 
0x75, 0x6c, 0x74, 0x00, 0x01, 0x00, 0x00, 0x00, 0x14, 0x00, 0x00, 0x00, 
0x01, 0x00, 0x00, 0x00, 0x2c, 0x00, 0x00, 0x00, 0x08, 0x00, 0x0c, 0x00, 
0x08, 0x00, 0x04, 0x00, 0x08, 0x00, 0x00, 0x00, 0x07, 0x00, 0x00, 0x00, 
0x04, 0x00, 0x00, 0x00, 0x0c, 0x00, 0x00, 0x00, 0x64, 0x65, 0x6e, 0x73, 
0x65, 0x5f, 0x44, 0x65, 0x6e, 0x73, 0x65, 0x32, 0x00, 0x00, 0x00, 0x00, 
0x52, 0xf4, 0xff, 0xff, 0x04, 0x00, 0x00, 0x00, 0x12, 0x00, 0x00, 0x00, 
0x64, 0x65, 0x6e, 0x73, 0x65, 0x5f, 0x44, 0x65, 0x6e, 0x73, 0x65, 0x31, 
0x5f, 0x69, 0x6e, 0x70, 0x75, 0x74, 0x00, 0x00, 0x01, 0x00, 0x00, 0x00, 
0x0c, 0x00, 0x00, 0x00, 0x08, 0x00, 0x0c, 0x00, 0x04, 0x00, 0x08, 0x00, 
0x08, 0x00, 0x00, 0x00, 0x08, 0x00, 0x00, 0x00, 0x09, 0x00, 0x00, 0x00, 
0x13, 0x00, 0x00, 0x00, 0x6d, 0x69, 0x6e, 0x5f, 0x72, 0x75, 0x6e, 0x74, 
0x69, 0x6d, 0x65, 0x5f, 0x76, 0x65, 0x72, 0x73, 0x69, 0x6f, 0x6e, 0x00, 
0xa6, 0xf4, 0xff, 0xff, 0x04, 0x00, 0x00, 0x00, 0x10, 0x00, 0x00, 0x00, 
0x31, 0x2e, 0x35, 0x2e, 0x30, 0x00, 0x00, 0x00, 0x00, 0x00, 0x00, 0x00, 
0x00, 0x00, 0x00, 0x00, 0x0f, 0x00, 0x00, 0x00, 0x4d, 0x4c, 0x49, 0x52, 
0x20, 0x43, 0x6f, 0x6e, 0x76, 0x65, 0x72, 0x74, 0x65, 0x64, 0x2e, 0x00, 
0x00, 0x00, 0x0e, 0x00, 0x18, 0x00, 0x04, 0x00, 0x08, 0x00, 0x0c, 0x00, 
0x10, 0x00, 0x14, 0x00, 0x0e, 0x00, 0x00, 0x00, 0x14, 0x00, 0x00, 0x00, 
0x34, 0x00, 0x00, 0x00, 0x38, 0x00, 0x00, 0x00, 0x3c, 0x00, 0x00, 0x00, 
0x48, 0x00, 0x00, 0x00, 0x08, 0x00, 0x00, 0x00, 0x74, 0x0b, 0x00, 0x00, 
0x24, 0x0b, 0x00, 0x00, 0xb8, 0x0a, 0x00, 0x00, 0x54, 0x0a, 0x00, 0x00, 
0x64, 0x02, 0x00, 0x00, 0xd0, 0x01, 0x00, 0x00, 0x14, 0x01, 0x00, 0x00, 
0x7c, 0x00, 0x00, 0x00, 0x01, 0x00, 0x00, 0x00, 0x00, 0x00, 0x00, 0x00, 
0x01, 0x00, 0x00, 0x00, 0x07, 0x00, 0x00, 0x00, 0x03, 0x00, 0x00, 0x00, 
0x58, 0x01, 0x00, 0x00, 0xc4, 0x00, 0x00, 0x00, 0x1c, 0x00, 0x00, 0x00, 
0x04, 0x00, 0x00, 0x00, 0x6d, 0x61, 0x69, 0x6e, 0x00, 0x00, 0x0e, 0x00, 
0x18, 0x00, 0x08, 0x00, 0x0c, 0x00, 0x10, 0x00, 0x07, 0x00, 0x14, 0x00, 
0x0e, 0x00, 0x00, 0x00, 0x00, 0x00, 0x00, 0x09, 0x01, 0x00, 0x00, 0x00, 
0x1c, 0x00, 0x00, 0x00, 0x10, 0x00, 0x00, 0x00, 0x04, 0x00, 0x00, 0x00, 
0x72, 0xf5, 0xff, 0xff, 0x00, 0x00, 0x80, 0x3f, 0x01, 0x00, 0x00, 0x00, 
0x07, 0x00, 0x00, 0x00, 0x01, 0x00, 0x00, 0x00, 0x06, 0x00, 0x00, 0x00, 
0xc0, 0xfe, 0xff, 0xff, 0x19, 0x00, 0x00, 0x00, 0x00, 0x00, 0x00, 0x19, 
0x01, 0x00, 0x00, 0x00, 0x38, 0xf5, 0xff, 0xff, 0x14, 0x00, 0x00, 0x00, 
0x08, 0x00, 0x00, 0x00, 0x18, 0x00, 0x00, 0x00, 0x40, 0x00, 0x00, 0x00, 
0x30, 0x00, 0x00, 0x00, 0x02, 0x00, 0x00, 0x00, 0x01, 0x00, 0x00, 0x00, 
0x02, 0x00, 0x00, 0x00, 0x19, 0x00, 0x00, 0x00, 0x53, 0x74, 0x61, 0x74, 
0x65, 0x66, 0x75, 0x6c, 0x50, 0x61, 0x72, 0x74, 0x69, 0x74, 0x69, 0x6f, 
0x6e, 0x65, 0x64, 0x43, 0x61, 0x6c, 0x6c, 0x3a, 0x30, 0x00, 0x00, 0x00, 
0x02, 0x00, 0x00, 0x00, 0xff, 0xff, 0xff, 0xff, 0x02, 0x00, 0x00, 0x00, 
0xf4, 0xf5, 0xff, 0xff, 0x00, 0x00, 0x0e, 0x00, 0x14, 0x00, 0x00, 0x00, 
0x08, 0x00, 0x0c, 0x00, 0x07, 0x00, 0x10, 0x00, 0x0e, 0x00, 0x00, 0x00, 
0x00, 0x00, 0x00, 0x08, 0x18, 0x00, 0x00, 0x00, 0x0c, 0x00, 0x00, 0x00, 
0x04, 0x00, 0x00, 0x00, 0x3c, 0xf5, 0xff, 0xff, 0x01, 0x00, 0x00, 0x00, 
0x06, 0x00, 0x00, 0x00, 0x03, 0x00, 0x00, 0x00, 0x05, 0x00, 0x00, 0x00, 
0x04, 0x00, 0x00, 0x00, 0x01, 0x00, 0x00, 0x00, 0xcc, 0xf5, 0xff, 0xff, 
0x14, 0x00, 0x00, 0x00, 0x07, 0x00, 0x00, 0x00, 0x18, 0x00, 0x00, 0x00, 
0x3c, 0x00, 0x00, 0x00, 0x2c, 0x00, 0x00, 0x00, 0x02, 0x00, 0x00, 0x00, 
0x01, 0x00, 0x00, 0x00, 0x02, 0x00, 0x00, 0x00, 0x14, 0x00, 0x00, 0x00, 
0x74, 0x66, 0x6c, 0x2e, 0x66, 0x75, 0x6c, 0x6c, 0x79, 0x5f, 0x63, 0x6f, 
0x6e, 0x6e, 0x65, 0x63, 0x74, 0x65, 0x64, 0x31, 0x00, 0x00, 0x00, 0x00, 
0x02, 0x00, 0x00, 0x00, 0xff, 0xff, 0xff, 0xff, 0x02, 0x00, 0x00, 0x00, 
0x84, 0xf6, 0xff, 0xff, 0x00, 0x00, 0x0e, 0x00, 0x16, 0x00, 0x00, 0x00, 
0x08, 0x00, 0x0c, 0x00, 0x07, 0x00, 0x10, 0x00, 0x0e, 0x00, 0x00, 0x00, 
0x00, 0x00, 0x00, 0x08, 0x24, 0x00, 0x00, 0x00, 0x18, 0x00, 0x00, 0x00, 
0x0c, 0x00, 0x00, 0x00, 0x00, 0x00, 0x06, 0x00, 0x08, 0x00, 0x07, 0x00, 
0x06, 0x00, 0x00, 0x00, 0x00, 0x00, 0x00, 0x01, 0x01, 0x00, 0x00, 0x00, 
0x05, 0x00, 0x00, 0x00, 0x03, 0x00, 0x00, 0x00, 0x00, 0x00, 0x00, 0x00, 
0x03, 0x00, 0x00, 0x00, 0x02, 0x00, 0x00, 0x00, 0x0c, 0x00, 0x10, 0x00, 
0x0b, 0x00, 0x00, 0x00, 0x0c, 0x00, 0x04, 0x00, 0x0c, 0x00, 0x00, 0x00, 
0x09, 0x00, 0x00, 0x00, 0x00, 0x00, 0x00, 0x09, 0x01, 0x00, 0x00, 0x00, 
0x84, 0xf6, 0xff, 0xff, 0x14, 0x00, 0x00, 0x00, 0x06, 0x00, 0x00, 0x00, 
0x18, 0x00, 0x00, 0x00, 0x38, 0x00, 0x00, 0x00, 0x28, 0x00, 0x00, 0x00, 
0x02, 0x00, 0x00, 0x00, 0x01, 0x00, 0x00, 0x00, 0x07, 0x00, 0x00, 0x00, 
0x13, 0x00, 0x00, 0x00, 0x74, 0x66, 0x6c, 0x2e, 0x66, 0x75, 0x6c, 0x6c, 
0x79, 0x5f, 0x63, 0x6f, 0x6e, 0x6e, 0x65, 0x63, 0x74, 0x65, 0x64, 0x00, 
0x02, 0x00, 0x00, 0x00, 0xff, 0xff, 0xff, 0xff, 0x07, 0x00, 0x00, 0x00, 
0x58, 0xf6, 0xff, 0xff, 0x32, 0xf7, 0xff, 0xff, 0x04, 0x00, 0x00, 0x00, 
0x38, 0x00, 0x00, 0x00, 0x87, 0x7a, 0xc7, 0xbe, 0xf7, 0x49, 0x3f, 0xbf, 
0xbd, 0x0d, 0x26, 0xbf, 0x8f, 0x69, 0xdb, 0x3e, 0xa8, 0x47, 0x5a, 0xbc, 
0xc2, 0xff, 0xc3, 0x3f, 0xcf, 0x37, 0xbb, 0x3d, 0x1e, 0x81, 0x7c, 0x3e, 
0xa6, 0x20, 0xb8, 0x3e, 0x2f, 0x12, 0x0e, 0x3f, 0x24, 0x8d, 0x98, 0xbe, 
0xef, 0xf5, 0x6c, 0x3f, 0xed, 0x10, 0x18, 0xc0, 0x0c, 0x3e, 0x82, 0x3f, 
0x5a, 0xf7, 0xff, 0xff, 0x10, 0x00, 0x00, 0x00, 0x05, 0x00, 0x00, 0x00, 
0x14, 0x00, 0x00, 0x00, 0x24, 0x00, 0x00, 0x00, 0x02, 0x00, 0x00, 0x00, 
0x02, 0x00, 0x00, 0x00, 0x07, 0x00, 0x00, 0x00, 0x0d, 0x00, 0x00, 0x00, 
0x73, 0x74, 0x64, 0x2e, 0x63, 0x6f, 0x6e, 0x73, 0x74, 0x61, 0x6e, 0x74, 
0x31, 0x00, 0x00, 0x00, 0xd4, 0xf6, 0xff, 0xff, 0xae, 0xf7, 0xff, 0xff, 
0x04, 0x00, 0x00, 0x00, 0xa8, 0x07, 0x00, 0x00, 0xf5, 0xa1, 0x4b, 0x3e, 
0xe6, 0xde, 0x2f, 0x3f, 0x98, 0xbd, 0xcd, 0xbe, 0x1c, 0xdb, 0x11, 0xbf, 
0x9c, 0x49, 0x24, 0xbe, 0x4f, 0xff, 0x92, 0x3d, 0x52, 0x9d, 0x04, 0x3e, 
0x35, 0xba, 0xeb, 0xbd, 0xa7, 0x28, 0x1c, 0xbf, 0x27, 0x45, 0xfe, 0x3b, 
0xa9, 0xca, 0x77, 0xbd, 0xd9, 0x21, 0xad, 0xbc, 0x44, 0x48, 0xb1, 0x3e, 
0xde, 0x3e, 0x10, 0x3f, 0x16, 0xec, 0xce, 0x3d, 0x2f, 0xb9, 0xee, 0xbe, 
0x0c, 0x50, 0x10, 0x3f, 0x79, 0x81, 0xb1, 0x3f, 0x44, 0x37, 0xff, 0x3e, 
0xa6, 0xe0, 0x2c, 0xbf, 0x42, 0x58, 0x2b, 0x3e, 0x53, 0x52, 0x07, 0x3f, 
0xb5, 0x9c, 0x36, 0x3f, 0x2b, 0xcb, 0x2c, 0x3d, 0x2c, 0x0d, 0x0a, 0xbf, 
0x52, 0x8f, 0xa8, 0x3d, 0x63, 0x58, 0x9f, 0x3e, 0x85, 0x1e, 0x82, 0xbb, 
0xdc, 0xdb, 0xbf, 0x3d, 0x0b, 0x22, 0x99, 0x3c, 0x34, 0x9b, 0xb7, 0xbc, 
0x19, 0x0b, 0x36, 0xbe, 0xdd, 0xce, 0x84, 0x3e, 0x5f, 0x8e, 0xa7, 0x3e, 
0xea, 0x0c, 0x50, 0x3f, 0xfc, 0xf0, 0x78, 0x3e, 0x21, 0x45, 0xc2, 0xbd, 
0xa8, 0xcd, 0xf5, 0xbd, 0x0c, 0x76, 0x2f, 0xbf, 0x66, 0x6a, 0x00, 0xbf, 
0xd5, 0xf7, 0xca, 0x3e, 0xc9, 0xb9, 0xa5, 0xbf, 0x4c, 0x84, 0xc7, 0xbd, 
0x9f, 0x86, 0x95, 0x3e, 0xe2, 0x9a, 0x12, 0x3f, 0xec, 0xdb, 0x52, 0x3c, 
0xba, 0x76, 0xa6, 0xbd, 0x54, 0x32, 0xc1, 0xbe, 0xee, 0xc8, 0xce, 0xbe, 
0xbd, 0xfc, 0x77, 0xbe, 0xbc, 0xb2, 0x0e, 0xbe, 0x7a, 0xd0, 0x05, 0xbf, 
0x67, 0x3a, 0x43, 0xbf, 0x46, 0x45, 0x91, 0xbe, 0x0c, 0xaa, 0x2b, 0xbd, 
0x17, 0x75, 0xc4, 0xbe, 0x6e, 0x4b, 0x3b, 0x3f, 0xaa, 0xe0, 0xdc, 0xbe, 
0x8e, 0xdb, 0x86, 0xbf, 0xd9, 0x0b, 0xf2, 0x3d, 0xec, 0x4d, 0x48, 0xbf, 
0xd4, 0x9b, 0xd6, 0xb9, 0x0f, 0xe3, 0x66, 0x3e, 0x76, 0xed, 0xf7, 0xbd, 
0xc6, 0x85, 0x81, 0xbf, 0xa0, 0xf1, 0x6b, 0xbf, 0xd5, 0x2d, 0x7c, 0xbe, 
0x51, 0x29, 0xa0, 0xbe, 0x93, 0x9f, 0xe2, 0x3e, 0x31, 0xb7, 0x29, 0xbe, 
0x90, 0xf4, 0x3d, 0xbf, 0xb1, 0xfa, 0xb7, 0xbf, 0xa4, 0x0c, 0xc5, 0xbf, 
0x6d, 0x38, 0xad, 0xbf, 0x71, 0x91, 0xc8, 0xbf, 0x38, 0x92, 0xae, 0xbf, 
0xeb, 0xb5, 0xa5, 0xbf, 0x43, 0x81, 0xc7, 0xbf, 0xc3, 0xc4, 0x94, 0xbf, 
0x70, 0x4a, 0xcf, 0xbf, 0x3c, 0x33, 0xe3, 0xbf, 0xc3, 0xa1, 0x8b, 0xbf, 
0xfd, 0xe2, 0x94, 0xbf, 0x7a, 0x3e, 0xe8, 0xbf, 0x32, 0xea, 0x86, 0xbf, 
0x7d, 0x8b, 0x8d, 0xbf, 0xf9, 0xd4, 0xcc, 0xbf, 0x53, 0x35, 0xbb, 0xbf, 
0xc1, 0xed, 0xe0, 0xbf, 0x1d, 0x8a, 0x83, 0xbf, 0x02, 0x28, 0xe9, 0xbf, 
0x39, 0xab, 0xbe, 0xbf, 0xaf, 0x2f, 0xbb, 0xbf, 0x8c, 0x98, 0x3a, 0x3d, 
0x9b, 0xf6, 0x8f, 0xbe, 0x4e, 0x56, 0x1e, 0x3c, 0xf2, 0x7c, 0xd4, 0xbc, 
0xd0, 0xc5, 0xf0, 0xbe, 0x39, 0x30, 0x37, 0xbf, 0x4d, 0x73, 0x44, 0xbf, 
0x02, 0xf7, 0xc0, 0xbe, 0xd7, 0xe4, 0xee, 0xbe, 0xe7, 0x1e, 0x7b, 0xbe, 
0x3a, 0x0b, 0x21, 0xbc, 0x88, 0x78, 0xba, 0xbe, 0x15, 0x8b, 0xa3, 0xbe, 
0xc5, 0x61, 0x94, 0xbb, 0x7c, 0x51, 0xb5, 0xbe, 0x21, 0x14, 0xb2, 0x3e, 
0xe3, 0x29, 0x6a, 0xbd, 0xf5, 0x5d, 0xd2, 0xbd, 0xd7, 0x8b, 0xa7, 0x3d, 
0xe8, 0x70, 0x31, 0x3e, 0xa1, 0x2a, 0x87, 0x3d, 0xee, 0xf4, 0x1a, 0xbe, 
0xbe, 0x26, 0x0b, 0xbe, 0x6c, 0xb2, 0x20, 0x3e, 0x30, 0x36, 0x4f, 0xbe, 
0x76, 0x81, 0xa0, 0x3e, 0xd9, 0xb2, 0x97, 0x3d, 0xa6, 0xb1, 0x68, 0x3e, 
0xce, 0x8f, 0x2a, 0x3e, 0x59, 0x23, 0x2a, 0xbc, 0x57, 0x56, 0x3c, 0xbb, 
0x63, 0x26, 0xf9, 0xbd, 0x59, 0xa6, 0x9d, 0x3e, 0x39, 0xac, 0x42, 0x3e, 
0x31, 0x2d, 0xd7, 0x3e, 0x2c, 0xef, 0x85, 0x3e, 0xcc, 0xa7, 0xfb, 0x3e, 
0xe4, 0x14, 0xe5, 0x3d, 0x7b, 0xa7, 0x91, 0x3e, 0xe2, 0xf1, 0x29, 0x3e, 
0x62, 0xfc, 0x62, 0x3e, 0x2f, 0x1c, 0x3b, 0x3f, 0x30, 0xe0, 0xb1, 0x3e, 
0x6e, 0x41, 0x6f, 0x3e, 0x20, 0x87, 0x9f, 0x3e, 0x47, 0x94, 0xf2, 0xbd, 
0xde, 0x72, 0x50, 0xbe, 0x06, 0xea, 0xb6, 0xbf, 0xc2, 0x78, 0xc2, 0xbf, 
0xbe, 0x30, 0xf5, 0xbf, 0x66, 0xc2, 0xe0, 0xbf, 0x55, 0x19, 0xde, 0xbf, 
0x06, 0xa2, 0x06, 0xc0, 0xfc, 0xd0, 0xbe, 0xbf, 0x75, 0x34, 0xeb, 0xbf, 
0x44, 0xa0, 0xac, 0xbf, 0xfa, 0x5b, 0x19, 0xc0, 0xf8, 0x05, 0x0f, 0xc0, 
0xc0, 0x25, 0xb2, 0xbf, 0x4d, 0xac, 0xe2, 0xbf, 0x87, 0x76, 0xc2, 0xbf, 
0x2b, 0x51, 0x67, 0xbf, 0x21, 0x5f, 0xc0, 0xbf, 0x48, 0x74, 0xec, 0xbf, 
0x5b, 0x95, 0x03, 0xc0, 0x7a, 0x76, 0x05, 0xc0, 0x15, 0xc5, 0x8e, 0xbf, 
0x4b, 0xb0, 0xbc, 0xbf, 0xce, 0x58, 0xf9, 0xbf, 0xf0, 0x94, 0x03, 0xc0, 
0x5e, 0x40, 0x86, 0xbf, 0x54, 0x30, 0x25, 0xc0, 0x06, 0xdb, 0xe7, 0xbf, 
0x1d, 0xac, 0xaa, 0xbe, 0x25, 0x06, 0x0e, 0xbe, 0x3b, 0xa7, 0x26, 0x3e, 
0x72, 0x16, 0xc5, 0xbe, 0x1d, 0xfd, 0x40, 0x3c, 0x9f, 0x5a, 0x71, 0xbe, 
0xf2, 0x1d, 0x10, 0xbe, 0x03, 0x2f, 0xc8, 0xbd, 0x6f, 0x22, 0x94, 0x3d, 
0xae, 0x4c, 0xb0, 0xbb, 0x9a, 0x79, 0x9b, 0x3d, 0xeb, 0xd0, 0x00, 0x3e, 
0x42, 0x65, 0x7c, 0x3c, 0xec, 0x0d, 0x55, 0x3e, 0x5b, 0x1b, 0x4b, 0xbe, 
0x1b, 0xc6, 0x1c, 0x3e, 0x3a, 0x1b, 0x61, 0x3d, 0xf2, 0xba, 0x85, 0xbe, 
0xb2, 0x4c, 0xee, 0x3d, 0xff, 0x2b, 0xcc, 0x3d, 0x44, 0x26, 0x29, 0x3e, 
0x33, 0x95, 0x4b, 0x3e, 0x7a, 0x33, 0x2b, 0xbe, 0xb6, 0x80, 0x5a, 0x3c, 
0xba, 0xc8, 0xa5, 0x3d, 0x22, 0xe8, 0xcb, 0x3d, 0xf0, 0x25, 0x43, 0x3e, 
0x89, 0x6e, 0x12, 0x3e, 0x2c, 0x56, 0xe8, 0x3e, 0x1d, 0x92, 0xc0, 0x3e, 
0xe4, 0x54, 0xf8, 0x3d, 0xd7, 0x9a, 0x81, 0x3e, 0xd6, 0xe9, 0x84, 0x3e, 
0xa3, 0xd2, 0x91, 0x3e, 0x78, 0xd1, 0x0a, 0x3e, 0xa5, 0x52, 0x09, 0x3e, 
0x70, 0x90, 0x20, 0x3e, 0x49, 0x29, 0x57, 0x3e, 0xc6, 0x06, 0x3b, 0x3e, 
0x9f, 0x16, 0x9c, 0x3d, 0xfe, 0x31, 0x05, 0x3c, 0x5b, 0x53, 0x17, 0x3d, 
0x6d, 0xf6, 0x19, 0x3d, 0x95, 0x3b, 0xf3, 0xbd, 0x34, 0xf4, 0x14, 0x3f, 
0xa3, 0xef, 0x0e, 0x3f, 0x73, 0x9b, 0xe2, 0x3f, 0x71, 0xc8, 0x95, 0x3f, 
0xbf, 0x8b, 0xbd, 0x3f, 0xab, 0x85, 0x95, 0x3f, 0x2b, 0x6d, 0x96, 0x3f, 
0xfb, 0x45, 0xa2, 0x3f, 0x16, 0x6c, 0xbe, 0x3e, 0x62, 0x0a, 0x6f, 0x3f, 
0xc9, 0x78, 0x0d, 0x3f, 0xd5, 0x48, 0x46, 0x3f, 0xea, 0x1b, 0x7e, 0x3f, 
0xeb, 0x44, 0x73, 0x3f, 0x91, 0x6f, 0x8c, 0x3e, 0x79, 0xac, 0x3d, 0x3e, 
0x4d, 0x6c, 0x83, 0x3e, 0x17, 0xdb, 0x46, 0xbe, 0xff, 0x6d, 0xcf, 0xbd, 
0x84, 0x03, 0x9d, 0xbe, 0x20, 0x01, 0x28, 0xbe, 0xe2, 0x0d, 0x29, 0xbf, 
0x7d, 0x35, 0x93, 0x3c, 0xd7, 0x5e, 0xe3, 0xbe, 0x27, 0x56, 0x58, 0xbe, 
0x64, 0x3f, 0xd1, 0xbe, 0x48, 0x95, 0x22, 0xbf, 0x25, 0xae, 0xb2, 0xbd, 
0x3b, 0xc5, 0xa0, 0xbe, 0x15, 0xf9, 0x42, 0xbe, 0x1b, 0xe3, 0x1f, 0xbd, 
0x44, 0xfe, 0x6d, 0x3d, 0x72, 0x27, 0x83, 0xbe, 0xd0, 0x97, 0x8b, 0xbe, 
0x84, 0x30, 0x1d, 0xbe, 0x9e, 0x36, 0x89, 0xbe, 0x67, 0x7e, 0x4e, 0xbe, 
0x75, 0xe2, 0xf3, 0xbe, 0x81, 0x18, 0x6f, 0x3e, 0xfe, 0x34, 0x65, 0x3a, 
0x8b, 0x57, 0xa3, 0x3e, 0x96, 0x39, 0x4f, 0x3d, 0x41, 0x0e, 0x6f, 0xbe, 
0x5a, 0x3b, 0xe0, 0xbe, 0xd3, 0x7a, 0x8c, 0x3e, 0x8c, 0x2d, 0x02, 0x3f, 
0xd7, 0x70, 0xfd, 0x3e, 0x3a, 0x81, 0xe1, 0xbc, 0xf6, 0x93, 0xa8, 0x3d, 
0x88, 0x68, 0x51, 0x3e, 0x19, 0x5d, 0x0b, 0x3f, 0x7d, 0x65, 0x6c, 0x3e, 
0x86, 0x6f, 0x43, 0x3e, 0xef, 0xe1, 0x70, 0x3e, 0x31, 0x2a, 0xe6, 0x3e, 
0xbf, 0xc3, 0x1c, 0x3f, 0x9e, 0xa0, 0xc5, 0x3e, 0x99, 0x0b, 0xa8, 0x3e, 
0xd4, 0x28, 0xa2, 0x3e, 0x24, 0x75, 0xe1, 0x3e, 0xb0, 0x99, 0xd4, 0x3e, 
0x7d, 0x5e, 0x55, 0x3e, 0x84, 0x9e, 0x8d, 0x3e, 0xea, 0x80, 0xe5, 0x3e, 
0x99, 0x78, 0xda, 0x3e, 0x4d, 0xcf, 0x1d, 0x3f, 0x9f, 0xc1, 0x00, 0x3f, 
0x59, 0x51, 0x71, 0x3e, 0xdf, 0x24, 0x99, 0xbd, 0x71, 0xb9, 0xa1, 0x3e, 
0xd8, 0x63, 0x59, 0xbe, 0xfe, 0x71, 0xb6, 0xbf, 0x48, 0x76, 0xae, 0xbf, 
0xb6, 0x73, 0xbf, 0xbe, 0x19, 0x7a, 0x33, 0xbf, 0x13, 0xbf, 0x81, 0xbf, 
0x44, 0xe4, 0xb6, 0xbe, 0x82, 0x4d, 0xc6, 0xbe, 0x47, 0xa9, 0x35, 0xbf, 
0xd6, 0x7f, 0x9d, 0xbf, 0x5e, 0xe5, 0x8c, 0xbf, 0x90, 0xa9, 0xa1, 0xbf, 
0x7e, 0x1e, 0x5f, 0xbf, 0x96, 0x13, 0x12, 0xbf, 0x4d, 0xe4, 0x60, 0xbf, 
0xa1, 0xb6, 0x92, 0x3e, 0x13, 0x6c, 0x69, 0xbf, 0x61, 0x71, 0x96, 0xbf, 
0x9d, 0xe9, 0x9c, 0xbf, 0x7e, 0x33, 0x2e, 0xbf, 0xbb, 0xef, 0x7b, 0xbf, 
0x07, 0xf0, 0x27, 0x3f, 0x76, 0xdf, 0x0a, 0x3f, 0x86, 0x37, 0xf9, 0x3e, 
0xd7, 0x84, 0x10, 0x3f, 0xf1, 0x43, 0xc9, 0xbd, 0x56, 0x52, 0xd1, 0xbe, 
0x12, 0xf2, 0x66, 0xbf, 0x11, 0x93, 0x5a, 0xbf, 0xc4, 0x8c, 0xaa, 0x3e, 
0xd4, 0xae, 0x12, 0x3e, 0xd1, 0x2a, 0xe6, 0x3e, 0xc8, 0x6d, 0x1c, 0x3f, 
0xb7, 0x7f, 0x5f, 0xbe, 0x08, 0xf5, 0x22, 0xbd, 0xb6, 0xa1, 0x10, 0xbd, 
0x56, 0xf0, 0x5f, 0xbe, 0xae, 0xa6, 0x5d, 0xbd, 0xb0, 0xc0, 0x0e, 0x3e, 
0x46, 0x21, 0x43, 0x3f, 0x78, 0x01, 0xb8, 0x3e, 0x03, 0x24, 0x3d, 0x3e, 
0x9e, 0x03, 0x5e, 0xbf, 0xd1, 0x82, 0x44, 0xbf, 0xc3, 0x77, 0x8a, 0xbe, 
0x17, 0x4d, 0x41, 0xbe, 0x00, 0x45, 0xa5, 0x38, 0x4d, 0x00, 0x92, 0xbd, 
0x01, 0x24, 0xd3, 0x3c, 0x5f, 0x06, 0x43, 0xbf, 0x0e, 0x01, 0x8d, 0xbf, 
0x0e, 0x7c, 0x32, 0xbf, 0x49, 0xd6, 0xba, 0x3e, 0x90, 0x46, 0x0b, 0x3f, 
0xa6, 0x6d, 0x22, 0x3d, 0x45, 0x9b, 0x80, 0xbc, 0x74, 0xc0, 0x76, 0x3e, 
0xd4, 0xad, 0x2f, 0x3f, 0x30, 0x45, 0x89, 0x3c, 0xd9, 0x28, 0xc1, 0xbd, 
0xc0, 0xa7, 0xf7, 0xbe, 0x68, 0x77, 0xb4, 0xbd, 0x27, 0x01, 0xac, 0x3e, 
0x08, 0x30, 0x43, 0xbf, 0xd4, 0xeb, 0x4d, 0xbe, 0x37, 0x30, 0x17, 0xbd, 
0x9c, 0xfb, 0x95, 0x3e, 0xfa, 0x98, 0x96, 0xbe, 0xc0, 0xfd, 0xb6, 0x3e, 
0x43, 0xe4, 0x3a, 0xbe, 0xb1, 0xd8, 0x6b, 0xbc, 0x9c, 0x13, 0xbc, 0xbe, 
0x77, 0x02, 0xe4, 0x3e, 0xde, 0x84, 0x12, 0x3f, 0xa7, 0xb2, 0x25, 0x3f, 
0xcf, 0x3b, 0xc7, 0x3d, 0xeb, 0x31, 0x2e, 0xbd, 0x1a, 0x09, 0x8b, 0xbe, 
0x67, 0x41, 0x20, 0xbe, 0x2d, 0xba, 0xcb, 0xbe, 0x08, 0x5f, 0x8b, 0xbf, 
0x89, 0x76, 0x25, 0xbe, 0xf7, 0x9a, 0x83, 0xbf, 0xda, 0x78, 0x9e, 0xbe, 
0xec, 0x10, 0xb8, 0x3b, 0xf3, 0xd8, 0x3b, 0xbf, 0x95, 0x47, 0xee, 0xbe, 
0x45, 0x50, 0xd1, 0xbd, 0x51, 0x38, 0x0f, 0x3e, 0x00, 0xe5, 0xb8, 0xbe, 
0xa6, 0x2d, 0x6d, 0xbe, 0xf0, 0xbf, 0x1d, 0xbe, 0xf6, 0x94, 0xb7, 0xbd, 
0x1a, 0xc0, 0x55, 0xbe, 0x74, 0xf3, 0x1e, 0xbd, 0xf7, 0xc2, 0x2e, 0xbe, 
0xe1, 0x93, 0x06, 0xbe, 0x3f, 0x7b, 0x30, 0xbe, 0xa6, 0xd7, 0x56, 0xbe, 
0x3d, 0x13, 0xfe, 0xbe, 0xe1, 0x94, 0x30, 0xbe, 0xae, 0xe1, 0x99, 0xbd, 
0x21, 0xeb, 0x19, 0xbf, 0x74, 0xb3, 0xa9, 0xbe, 0xe8, 0x14, 0x60, 0xbe, 
0xb9, 0xee, 0xf6, 0xbe, 0xad, 0x4c, 0x6d, 0xbe, 0x74, 0xf6, 0xc7, 0xbe, 
0x07, 0x54, 0xe5, 0x3b, 0x1e, 0xf8, 0x13, 0xbf, 0xff, 0x59, 0xf9, 0xbd, 
0x4d, 0x4a, 0xd3, 0xbe, 0xd6, 0xeb, 0xb5, 0xbe, 0xb7, 0xb4, 0xc6, 0xbe, 
0xd5, 0xe7, 0x4f, 0xbf, 0x38, 0x51, 0x90, 0xbf, 0x81, 0xc2, 0x89, 0xbf, 
0x49, 0x06, 0x8b, 0xbf, 0xc9, 0xaf, 0x67, 0xbf, 0x5b, 0xa3, 0x44, 0xbf, 
0x5c, 0x75, 0x47, 0xbf, 0xdd, 0xbf, 0xe2, 0xbe, 0xa0, 0x19, 0xba, 0xbe, 
0x8c, 0xc4, 0xf8, 0xbd, 0x73, 0x1d, 0x47, 0xbd, 0x64, 0x37, 0xe0, 0xbe, 
0x71, 0xf2, 0x50, 0xbe, 0xda, 0x03, 0xfe, 0xbb, 0x6b, 0xe4, 0x43, 0xbe, 
0xf3, 0xa0, 0x67, 0xbd, 0xce, 0x0f, 0xe5, 0xbd, 0x37, 0x9b, 0x82, 0xbb, 
0x11, 0x32, 0x44, 0x3c, 0x34, 0x7f, 0x3b, 0xbe, 0x8e, 0xe5, 0x3c, 0xbe, 
0x24, 0xae, 0xce, 0xbe, 0x36, 0x5d, 0x2e, 0xbe, 0x4a, 0x4a, 0xd5, 0xbe, 
0x4a, 0xd1, 0x06, 0xbe, 0xc1, 0xfd, 0x0c, 0x3e, 0xe4, 0xc4, 0x7a, 0xbf, 
0x73, 0xaa, 0x99, 0xbf, 0xfc, 0xcc, 0x48, 0xbf, 0xf7, 0xd6, 0x53, 0xbf, 
0x40, 0x21, 0x5e, 0xbf, 0x50, 0xe9, 0xb1, 0xbf, 0x17, 0xec, 0x7c, 0xbf, 
0x11, 0x80, 0x85, 0xbf, 0x35, 0x46, 0x91, 0xbf, 0xd3, 0xa3, 0xbe, 0xbf, 
0xc1, 0xf9, 0xc2, 0xbf, 0x97, 0x02, 0x57, 0xbf, 0xef, 0x7c, 0x42, 0xbf, 
0xa3, 0x36, 0x59, 0xbf, 0x8f, 0xc1, 0xca, 0xbf, 0x38, 0xba, 0x12, 0xbf, 
0xcc, 0xf1, 0xac, 0xbf, 0x0b, 0x7f, 0xb6, 0xbf, 0x79, 0xcd, 0x63, 0xbf, 
0xd9, 0x7e, 0x85, 0xbf, 0xc6, 0x17, 0xa4, 0xbf, 0x4e, 0x60, 0x1b, 0xbf, 
0xdb, 0x01, 0x87, 0xbf, 0xb2, 0x2d, 0x7a, 0xbf, 0x6d, 0xec, 0xde, 0xbe, 
0x92, 0xd3, 0xd9, 0xbe, 0x22, 0x3c, 0x35, 0xbf, 0xe3, 0xfc, 0x13, 0xbf, 
0x43, 0x84, 0x93, 0xbe, 0xff, 0x01, 0xdc, 0x3e, 0xe7, 0x58, 0x9d, 0x3d, 
0x9f, 0xee, 0x4a, 0xbd, 0xc6, 0x32, 0x6b, 0xbf, 0xa8, 0x72, 0x4f, 0xbf, 
0x5c, 0x33, 0xdd, 0xbe, 0xa8, 0xf8, 0x14, 0xbf, 0x31, 0xcf, 0xd0, 0x3b, 
0x28, 0x96, 0xf6, 0x3e, 0xe4, 0xd7, 0xda, 0x3e, 0x36, 0xd3, 0x8f, 0xbd, 
0x8a, 0x60, 0x59, 0xbe, 0x07, 0xf3, 0xd8, 0xbd, 0xa8, 0xc2, 0x00, 0xbd, 
0xfa, 0xa8, 0x51, 0x3b, 0x9f, 0x0c, 0xce, 0x3e, 0x24, 0x6e, 0x67, 0x3e, 
0xd8, 0x6a, 0x71, 0xbe, 0x86, 0x26, 0x85, 0x3e, 0xbf, 0x4c, 0x19, 0x3e, 
0x29, 0x6f, 0x25, 0x3e, 0xfb, 0xad, 0xb5, 0xbd, 0xd6, 0x17, 0xff, 0xbe, 
0xf3, 0xb1, 0xd4, 0x3e, 0x27, 0xf1, 0xf6, 0x3e, 0xba, 0xc8, 0x6e, 0xbc, 
0x8e, 0x02, 0x0e, 0x3e, 0xc8, 0xe9, 0xe6, 0xbd, 0xc8, 0x08, 0x0f, 0xbe, 
0x96, 0x96, 0x4d, 0xbe, 0x19, 0xb4, 0x35, 0x3e, 0x27, 0xeb, 0x9c, 0x3f, 
0x08, 0x7d, 0x4d, 0x3e, 0xd8, 0xc0, 0xa9, 0x3b, 0x9c, 0xe4, 0x93, 0xbd, 
0xe6, 0x09, 0x94, 0xbf, 0xcb, 0x5f, 0x57, 0x3f, 0xc9, 0xbb, 0xf3, 0x3d, 
0x89, 0x24, 0xd2, 0xbe, 0x1b, 0x24, 0x26, 0xbd, 0xeb, 0x14, 0x17, 0xbe, 
0x46, 0xff, 0xff, 0xff, 0x10, 0x00, 0x00, 0x00, 0x04, 0x00, 0x00, 0x00, 
0x14, 0x00, 0x00, 0x00, 0x24, 0x00, 0x00, 0x00, 0x02, 0x00, 0x00, 0x00, 
0x07, 0x00, 0x00, 0x00, 0x46, 0x00, 0x00, 0x00, 0x0c, 0x00, 0x00, 0x00, 
0x73, 0x74, 0x64, 0x2e, 0x63, 0x6f, 0x6e, 0x73, 0x74, 0x61, 0x6e, 0x74, 
0x00, 0x00, 0x00, 0x00, 0xc0, 0xfe, 0xff, 0xff, 0x9a, 0xff, 0xff, 0xff, 
0x04, 0x00, 0x00, 0x00, 0x1c, 0x00, 0x00, 0x00, 0x96, 0x15, 0x94, 0xbe, 
0xee, 0xde, 0x0a, 0x3e, 0x86, 0x88, 0x27, 0x3e, 0x4a, 0xc9, 0x71, 0x3b, 
0xf8, 0xf1, 0x2d, 0xbd, 0xa2, 0xa5, 0x20, 0x40, 0x74, 0x15, 0x80, 0xbe, 
0xa6, 0xff, 0xff, 0xff, 0x10, 0x00, 0x00, 0x00, 0x03, 0x00, 0x00, 0x00, 
0x10, 0x00, 0x00, 0x00, 0x28, 0x00, 0x00, 0x00, 0x01, 0x00, 0x00, 0x00, 
0x07, 0x00, 0x00, 0x00, 0x11, 0x00, 0x00, 0x00, 0x64, 0x65, 0x6e, 0x73, 
0x65, 0x5f, 0x44, 0x65, 0x6e, 0x73, 0x65, 0x31, 0x2f, 0x62, 0x69, 0x61, 
0x73, 0x00, 0x00, 0x00, 0x04, 0x00, 0x06, 0x00, 0x04, 0x00, 0x00, 0x00, 
0x00, 0x00, 0x06, 0x00, 0x08, 0x00, 0x04, 0x00, 0x06, 0x00, 0x00, 0x00, 
0x04, 0x00, 0x00, 0x00, 0x08, 0x00, 0x00, 0x00, 0x52, 0xce, 0xae, 0x3d, 
0x52, 0xce, 0xae, 0xbd, 0x00, 0x00, 0x0e, 0x00, 0x14, 0x00, 0x04, 0x00, 
0x00, 0x00, 0x08, 0x00, 0x0c, 0x00, 0x10, 0x00, 0x0e, 0x00, 0x00, 0x00, 
0x10, 0x00, 0x00, 0x00, 0x02, 0x00, 0x00, 0x00, 0x10, 0x00, 0x00, 0x00, 
0x24, 0x00, 0x00, 0x00, 0x01, 0x00, 0x00, 0x00, 0x02, 0x00, 0x00, 0x00, 
0x11, 0x00, 0x00, 0x00, 0x64, 0x65, 0x6e, 0x73, 0x65, 0x5f, 0x44, 0x65, 
0x6e, 0x73, 0x65, 0x32, 0x2f, 0x62, 0x69, 0x61, 0x73, 0x00, 0x00, 0x00, 
0x88, 0xff, 0xff, 0xff, 0x14, 0x00, 0x18, 0x00, 0x04, 0x00, 0x00, 0x00, 
0x08, 0x00, 0x0c, 0x00, 0x10, 0x00, 0x00, 0x00, 0x00, 0x00, 0x14, 0x00, 
0x14, 0x00, 0x00, 0x00, 0x14, 0x00, 0x00, 0x00, 0x01, 0x00, 0x00, 0x00, 
0x18, 0x00, 0x00, 0x00, 0x4c, 0x00, 0x00, 0x00, 0x3c, 0x00, 0x00, 0x00, 
0x02, 0x00, 0x00, 0x00, 0x01, 0x00, 0x00, 0x00, 0x46, 0x00, 0x00, 0x00, 
0x24, 0x00, 0x00, 0x00, 0x73, 0x65, 0x72, 0x76, 0x69, 0x6e, 0x67, 0x5f, 
0x64, 0x65, 0x66, 0x61, 0x75, 0x6c, 0x74, 0x5f, 0x64, 0x65, 0x6e, 0x73, 
0x65, 0x5f, 0x44, 0x65, 0x6e, 0x73, 0x65, 0x31, 0x5f, 0x69, 0x6e, 0x70, 
0x75, 0x74, 0x3a, 0x30, 0x00, 0x00, 0x00, 0x00, 0x02, 0x00, 0x00, 0x00, 
0xff, 0xff, 0xff, 0xff, 0x46, 0x00, 0x00, 0x00, 0xfc, 0xff, 0xff, 0xff, 
0x04, 0x00, 0x04, 0x00, 0x04, 0x00, 0x00, 0x00, 
};
const int g_model_len = 3464;